#include "model_data.h"

alignas(16) const unsigned char g_model_data[] = {
  0x1c, 0x00, 0x00, 0x00, 0x54, 0x46, 0x4c, 0x33, 0x14, 0x00, 0x20, 0x00,
  0x1c, 0x00, 0x18, 0x00, 0x14, 0x00, 0x10, 0x00, 0x0c, 0x00, 0x00, 0x00,
  0x08, 0x00, 0x04, 0x00, 0x14, 0x00, 0x00, 0x00, 0x1c, 0x00, 0x00, 0x00,
  0x88, 0x00, 0x00, 0x00, 0xe0, 0x00, 0x00, 0x00, 0xc0, 0x09, 0x00, 0x00,
  0xd0, 0x09, 0x00, 0x00, 0x50, 0x17, 0x00, 0x00, 0x03, 0x00, 0x00, 0x00,
  0x01, 0x00, 0x00, 0x00, 0x04, 0x00, 0x00, 0x00, 0x62, 0xf4, 0xff, 0xff,
  0x0c, 0x00, 0x00, 0x00, 0x1c, 0x00, 0x00, 0x00, 0x3c, 0x00, 0x00, 0x00,
  0x0f, 0x00, 0x00, 0x00, 0x73, 0x65, 0x72, 0x76, 0x69, 0x6e, 0x67, 0x5f,
  0x64, 0x65, 0x66, 0x61, 0x75, 0x6c, 0x74, 0x00, 0x01, 0x00, 0x00, 0x00,
  0x04, 0x00, 0x00, 0x00, 0x94, 0xff, 0xff, 0xff, 0x14, 0x00, 0x00, 0x00,
  0x04, 0x00, 0x00, 0x00, 0x08, 0x00, 0x00, 0x00, 0x64, 0x65, 0x6e, 0x73,
  0x65, 0x5f, 0x36, 0x32, 0x00, 0x00, 0x00, 0x00, 0x01, 0x00, 0x00, 0x00,
  0x04, 0x00, 0x00, 0x00, 0x12, 0xf6, 0xff, 0xff, 0x04, 0x00, 0x00, 0x00,
  0x08, 0x00, 0x00, 0x00, 0x69, 0x6e, 0x70, 0x75, 0x74, 0x5f, 0x33, 0x39,
  0x00, 0x00, 0x00, 0x00, 0x02, 0x00, 0x00, 0x00, 0x34, 0x00, 0x00, 0x00,
  0x04, 0x00, 0x00, 0x00, 0xdc, 0xff, 0xff, 0xff, 0x17, 0x00, 0x00, 0x00,
  0x04, 0x00, 0x00, 0x00, 0x13, 0x00, 0x00, 0x00, 0x43, 0x4f, 0x4e, 0x56,
  0x45, 0x52, 0x53, 0x49, 0x4f, 0x4e, 0x5f, 0x4d, 0x45, 0x54, 0x41, 0x44,
  0x41, 0x54, 0x41, 0x00, 0x08, 0x00, 0x0c, 0x00, 0x08, 0x00, 0x04, 0x00,
  0x08, 0x00, 0x00, 0x00, 0x16, 0x00, 0x00, 0x00, 0x04, 0x00, 0x00, 0x00,
  0x13, 0x00, 0x00, 0x00, 0x6d, 0x69, 0x6e, 0x5f, 0x72, 0x75, 0x6e, 0x74,
  0x69, 0x6d, 0x65, 0x5f, 0x76, 0x65, 0x72, 0x73, 0x69, 0x6f, 0x6e, 0x00,
  0x18, 0x00, 0x00, 0x00, 0xdc, 0x08, 0x00, 0x00, 0xd4, 0x08, 0x00, 0x00,
  0xb4, 0x08, 0x00, 0x00, 0x98, 0x08, 0x00, 0x00, 0x88, 0x05, 0x00, 0x00,
  0x68, 0x05, 0x00, 0x00, 0x48, 0x05, 0x00, 0x00, 0x28, 0x05, 0x00, 0x00,
  0x14, 0x05, 0x00, 0x00, 0xfc, 0x04, 0x00, 0x00, 0xe8, 0x04, 0x00, 0x00,
  0xd8, 0x00, 0x00, 0x00, 0xd0, 0x00, 0x00, 0x00, 0xc8, 0x00, 0x00, 0x00,
  0xc0, 0x00, 0x00, 0x00, 0xb8, 0x00, 0x00, 0x00, 0xb0, 0x00, 0x00, 0x00,
  0xa8, 0x00, 0x00, 0x00, 0xa0, 0x00, 0x00, 0x00, 0x98, 0x00, 0x00, 0x00,
  0x90, 0x00, 0x00, 0x00, 0x88, 0x00, 0x00, 0x00, 0x68, 0x00, 0x00, 0x00,
  0x04, 0x00, 0x00, 0x00, 0xea, 0xf6, 0xff, 0xff, 0x04, 0x00, 0x00, 0x00,
  0x54, 0x00, 0x00, 0x00, 0x0c, 0x00, 0x00, 0x00, 0x08, 0x00, 0x0e, 0x00,
  0x08, 0x00, 0x04, 0x00, 0x08, 0x00, 0x00, 0x00, 0x10, 0x00, 0x00, 0x00,
  0x24, 0x00, 0x00, 0x00, 0x00, 0x00, 0x06, 0x00, 0x08, 0x00, 0x04, 0x00,
  0x06, 0x00, 0x00, 0x00, 0x04, 0x00, 0x00, 0x00, 0x00, 0x00, 0x00, 0x00,
  0x00, 0x00, 0x0a, 0x00, 0x10, 0x00, 0x0c, 0x00, 0x08, 0x00, 0x04, 0x00,
  0x0a, 0x00, 0x00, 0x00, 0x02, 0x00, 0x00, 0x00, 0x02, 0x00, 0x00, 0x00,
  0x04, 0x00, 0x00, 0x00, 0x06, 0x00, 0x00, 0x00, 0x32, 0x2e, 0x31, 0x32,
  0x2e, 0x30, 0x00, 0x00, 0x4a, 0xf7, 0xff, 0xff, 0x04, 0x00, 0x00, 0x00,
  0x10, 0x00, 0x00, 0x00, 0x31, 0x2e, 0x31, 0x30, 0x2e, 0x30, 0x00, 0x00,
  0x00, 0x00, 0x00, 0x00, 0x00, 0x00, 0x00, 0x00, 0x28, 0xea, 0xff, 0xff,
  0x2c, 0xea, 0xff, 0xff, 0x30, 0xea, 0xff, 0xff, 0x34, 0xea, 0xff, 0xff,
  0x38, 0xea, 0xff, 0xff, 0x3c, 0xea, 0xff, 0xff, 0x40, 0xea, 0xff, 0xff,
  0x44, 0xea, 0xff, 0xff, 0x48, 0xea, 0xff, 0xff, 0x4c, 0xea, 0xff, 0xff,
  0x8e, 0xf7, 0xff, 0xff, 0x04, 0x00, 0x00, 0x00, 0x00, 0x04, 0x00, 0x00,
  0xcf, 0x5e, 0xc3, 0x3d, 0x89, 0x0c, 0xdd, 0xbe, 0x76, 0xc0, 0x15, 0x3d,
  0xab, 0x5d, 0xbc, 0xbe, 0xe3, 0x8b, 0x79, 0x3e, 0x5a, 0xc2, 0x16, 0xbf,
  0x1b, 0x0f, 0x26, 0xbe, 0xd1, 0xbb, 0xce, 0xbe, 0xd9, 0xf5, 0x0d, 0x3e,
  0xdf, 0x66, 0xec, 0xbe, 0xe3, 0x08, 0x47, 0x3d, 0xb0, 0xf7, 0xd7, 0xbe,
  0x2e, 0x07, 0x80, 0x3e, 0x0c, 0xe2, 0xe6, 0xbe, 0xf0, 0x74, 0xd6, 0xbd,
  0x7b, 0x76, 0xa4, 0xbe, 0x4c, 0xea, 0x73, 0x3e, 0x25, 0xe9, 0xa5, 0xbe,
  0x03, 0x97, 0x04, 0x3e, 0x77, 0x8e, 0xaa, 0xbe, 0xed, 0x3b, 0x71, 0x3e,
  0x30, 0x3e, 0x06, 0xbf, 0x46, 0x7d, 0x87, 0xbe, 0xdc, 0x8d, 0x00, 0xbf,
  0x8a, 0x50, 0x6b, 0x3e, 0x55, 0x7d, 0x08, 0xbf, 0xc1, 0xbd, 0x9d, 0xbd,
  0x4f, 0xcd, 0xde, 0xbe, 0x42, 0x43, 0x46, 0x3e, 0x9f, 0x90, 0xe8, 0xbe,
  0x62, 0xbc, 0x8b, 0xbe, 0x5b, 0x89, 0xfc, 0xbe, 0xe3, 0xfb, 0x96, 0x3e,
  0x61, 0x3c, 0xeb, 0xbe, 0x0e, 0x2a, 0x82, 0xbd, 0x37, 0xd8, 0x00, 0xbf,
  0xcc, 0x50, 0xd5, 0x3e, 0x97, 0x66, 0x0f, 0xbf, 0x88, 0x45, 0x21, 0xbd,
  0xe0, 0x3f, 0x18, 0xbf, 0x25, 0xbb, 0x5e, 0x3e, 0x73, 0xfc, 0xb6, 0xbe,
  0xee, 0x89, 0x3f, 0xbe, 0xd8, 0xb0, 0xda, 0xbe, 0x8c, 0x5d, 0x80, 0x3e,
  0x5f, 0x1a, 0x13, 0xbf, 0x42, 0x2a, 0x32, 0x3d, 0xc9, 0x95, 0xb0, 0xbe,
  0xee, 0x9e, 0x8b, 0x3e, 0x67, 0xa9, 0xa4, 0xbe, 0x03, 0xb1, 0xfa, 0xbd,
  0xb1, 0x82, 0xe8, 0xbe, 0x3e, 0x1f, 0xed, 0x3d, 0x05, 0xba, 0xf6, 0xbe,
  0x7d, 0xf3, 0x28, 0xbe, 0x77, 0x5e, 0xe3, 0xbe, 0xa5, 0xff, 0xd7, 0x3d,
  0x2c, 0x5a, 0x13, 0xbf, 0x0a, 0x97, 0x53, 0xbe, 0x6e, 0xf1, 0xd9, 0xbe,
  0x0a, 0x90, 0x65, 0x3e, 0x15, 0x67, 0xfa, 0xbe, 0xa6, 0xe9, 0x18, 0xbe,
  0x38, 0x4b, 0x04, 0xbf, 0xe8, 0xdf, 0xe0, 0x3c, 0x45, 0x6c, 0xb7, 0x3e,
  0xa2, 0x5f, 0xc4, 0xbd, 0x91, 0x28, 0x9c, 0x3b, 0xdd, 0xea, 0x6e, 0x3e,
  0xb1, 0x89, 0xc3, 0x3e, 0x7e, 0xda, 0x34, 0x3c, 0x99, 0x62, 0x61, 0xbe,
  0xb7, 0x1c, 0xfb, 0x3d, 0x6d, 0x7b, 0xa0, 0x3e, 0x4c, 0xf4, 0xda, 0xbd,
  0xfe, 0x2c, 0x0a, 0xbe, 0x9b, 0x08, 0x4e, 0x3e, 0xd1, 0x1c, 0x0c, 0x3f,
  0x73, 0xa3, 0x82, 0x3c, 0x53, 0xae, 0xca, 0x3c, 0x35, 0x6f, 0x42, 0x3e,
  0xa2, 0x0f, 0xfc, 0x3e, 0x44, 0x9a, 0xde, 0xbc, 0x44, 0x17, 0xc6, 0xbd,
  0x05, 0x47, 0x17, 0x3e, 0x37, 0x0c, 0xe1, 0x3e, 0x3b, 0x5e, 0xe5, 0xbd,
  0xf8, 0xfa, 0x30, 0xbe, 0x0d, 0x77, 0x1c, 0x3e, 0x97, 0x64, 0xba, 0x3e,
  0x27, 0x58, 0x00, 0xbe, 0x61, 0x92, 0x46, 0xbe, 0x4e, 0x63, 0x01, 0x3e,
  0x90, 0x39, 0xec, 0x3e, 0x2d, 0x21, 0x67, 0xbe, 0xe6, 0xa8, 0xf1, 0xbd,
  0x03, 0xc3, 0x61, 0x3e, 0x87, 0x23, 0x05, 0x3f, 0xe5, 0xee, 0x31, 0xbd,
  0x50, 0xad, 0xb0, 0xbe, 0x03, 0xf8, 0xb9, 0x3e, 0x54, 0xde, 0xfa, 0x3e,
  0xa8, 0xfb, 0x0d, 0x3d, 0xd7, 0xf3, 0x24, 0xbe, 0x68, 0x47, 0x23, 0x3e,
  0xfc, 0xeb, 0x03, 0x3f, 0xf7, 0xdf, 0xc5, 0xbd, 0xae, 0x3b, 0x8d, 0xbe,
  0x2d, 0x72, 0x53, 0x3e, 0x22, 0xef, 0xb9, 0x3e, 0xd4, 0x43, 0x80, 0x3d,
  0x62, 0x19, 0xac, 0x3a, 0x11, 0x56, 0x5b, 0x3e, 0x8d, 0x46, 0x0b, 0x3f,
  0x75, 0xe8, 0x2b, 0x3d, 0x3e, 0xde, 0x78, 0xbe, 0xa0, 0x32, 0xb4, 0x3d,
  0xba, 0xef, 0xcc, 0x3e, 0x8f, 0xed, 0xd8, 0xbc, 0xc8, 0xcd, 0x85, 0xbb,
  0x4e, 0xb5, 0xda, 0x3d, 0x78, 0x0b, 0xa1, 0x3e, 0x86, 0x0f, 0x1b, 0xbe,
  0x21, 0x0b, 0x44, 0xbe, 0x8a, 0xb6, 0x4a, 0x3e, 0x2d, 0xce, 0x85, 0x3e,
  0xb7, 0xf4, 0x4f, 0xbe, 0x4d, 0xf7, 0x22, 0xbe, 0xed, 0xe3, 0x2f, 0xbf,
  0xc6, 0x2d, 0xe3, 0xbe, 0x18, 0x72, 0x07, 0xbf, 0x1b, 0x52, 0x9a, 0x3e,
  0xbb, 0x9b, 0xd6, 0xbe, 0x29, 0xb6, 0x04, 0xbe, 0x21, 0x0f, 0x74, 0xbe,
  0xfa, 0xcb, 0x17, 0x3e, 0x82, 0x1a, 0x11, 0xbf, 0xe2, 0xa8, 0xb2, 0xbe,
  0x6e, 0x57, 0xc0, 0xbe, 0xd8, 0x51, 0x8e, 0x3e, 0xcc, 0xc1, 0xf7, 0xbe,
  0x4b, 0x15, 0x2d, 0xbe, 0x4c, 0x37, 0xa7, 0xbe, 0x0d, 0x6f, 0xcd, 0x3e,
  0xa1, 0x7e, 0xe2, 0xbe, 0x4b, 0xae, 0x05, 0xbe, 0xa0, 0xf1, 0xb2, 0xbe,
  0x7a, 0x28, 0xb3, 0x3e, 0x7a, 0x59, 0xf1, 0xbe, 0xa6, 0xfb, 0xd7, 0xbd,
  0xd1, 0xca, 0xa2, 0xbe, 0x26, 0xa5, 0xd8, 0x3d, 0x88, 0x2c, 0xe0, 0xbe,
  0xbe, 0x13, 0x87, 0xbe, 0xca, 0xc0, 0xcc, 0xbe, 0xc9, 0xf2, 0x57, 0x3e,
  0xb7, 0x52, 0x09, 0xbf, 0x26, 0xb6, 0x2e, 0xbe, 0x14, 0xb2, 0x0a, 0xbf,
  0x1f, 0x1a, 0xa0, 0x3e, 0xda, 0x98, 0x00, 0xbf, 0xbc, 0x50, 0x70, 0xbd,
  0xd1, 0x59, 0xc0, 0xbe, 0x22, 0x26, 0x1f, 0x3e, 0x9d, 0x6e, 0x9c, 0xbe,
  0x10, 0x50, 0xe4, 0xbd, 0x7c, 0xfb, 0xc2, 0xbe, 0x1b, 0xdf, 0x44, 0x3e,
  0xf8, 0x61, 0xff, 0xbe, 0x7b, 0x55, 0x41, 0xbe, 0xe2, 0x30, 0xc0, 0xbe,
  0xe3, 0x2e, 0xf9, 0x3d, 0x85, 0xba, 0xe2, 0xbe, 0x7e, 0xa7, 0xb9, 0xbd,
  0xc6, 0x17, 0x55, 0xbe, 0x12, 0x13, 0x9a, 0x3e, 0x0f, 0x8e, 0x01, 0xbf,
  0x65, 0xc5, 0xd5, 0xbd, 0xec, 0x4b, 0x7a, 0xbe, 0x58, 0x26, 0x96, 0x3e,
  0x8c, 0x94, 0x05, 0xbf, 0x2b, 0xbb, 0x9e, 0xbe, 0x41, 0x09, 0x9c, 0xbe,
  0xdf, 0x87, 0xb3, 0x3e, 0x23, 0xff, 0x13, 0xbf, 0x6b, 0xe0, 0x8d, 0xbe,
  0x25, 0x39, 0xf0, 0xbe, 0x0f, 0xa3, 0x73, 0x3e, 0x5a, 0xf6, 0xd7, 0xbe,
  0x13, 0xf0, 0xb2, 0xbe, 0xb2, 0x82, 0xcd, 0xbe, 0x1d, 0xa5, 0x3f, 0x3e,
  0x0e, 0xd5, 0xe3, 0xbe, 0xee, 0x48, 0xdd, 0x3b, 0x94, 0x6a, 0x2f, 0x3e,
  0xf5, 0x41, 0x54, 0x3c, 0x22, 0xa3, 0x6e, 0xbe, 0x9a, 0xf4, 0xc9, 0xbd,
  0xe0, 0x85, 0x02, 0x3f, 0x97, 0xe1, 0x12, 0x3c, 0xef, 0xb1, 0xe1, 0xbe,
  0xa1, 0x3f, 0xc2, 0xbd, 0x47, 0xde, 0xbc, 0x3e, 0x69, 0xb2, 0x10, 0x3d,
  0xcb, 0xe6, 0x80, 0xbe, 0x86, 0xce, 0xaf, 0xbd, 0x4b, 0xee, 0xf1, 0x3e,
  0x58, 0x3d, 0x61, 0x3e, 0x3c, 0x5f, 0x62, 0xbe, 0x50, 0xe1, 0xe3, 0x3b,
  0xd0, 0xa2, 0xed, 0x3e, 0xc0, 0x04, 0x0e, 0x3e, 0x92, 0x65, 0x6c, 0xbe,
  0xe2, 0xef, 0x52, 0x3c, 0x47, 0x33, 0x95, 0x3e, 0x1c, 0xc8, 0xb7, 0xbb,
  0xb5, 0x5d, 0x46, 0xbe, 0xd0, 0x0e, 0xd2, 0xbd, 0x91, 0x19, 0xaa, 0x3e,
  0x2c, 0x5d, 0xce, 0x3d, 0xe7, 0xb5, 0x2c, 0xbe, 0x75, 0x24, 0xc0, 0x3d,
  0xf4, 0x08, 0x5f, 0x3e, 0xc0, 0x7f, 0xe5, 0x3d, 0x72, 0x7c, 0xe8, 0xbd,
  0x60, 0x4d, 0x56, 0x3d, 0xbe, 0xbb, 0xeb, 0x3e, 0x4f, 0xfb, 0xc1, 0xbc,
  0x13, 0x4d, 0xe2, 0x3c, 0x25, 0x0c, 0xb0, 0x3c, 0x07, 0x9a, 0xfd, 0x3e,
  0x55, 0x77, 0x19, 0xbb, 0xca, 0xaf, 0x38, 0xbe, 0x8b, 0x19, 0xd5, 0x3d,
  0x49, 0xab, 0xbb, 0x3e, 0x98, 0x28, 0xcd, 0xbc, 0x50, 0xc6, 0xe4, 0xbd,
  0xcc, 0x22, 0x80, 0x3d, 0x49, 0xea, 0x12, 0x3f, 0x7f, 0x3f, 0x16, 0x3e,
  0x2d, 0xd9, 0x25, 0xbe, 0x70, 0x5e, 0x9d, 0x3d, 0x8b, 0x04, 0x1a, 0x3f,
  0xe6, 0xa2, 0x0b, 0x3e, 0x50, 0xfb, 0x4c, 0xbe, 0xf4, 0x47, 0xa1, 0x3d,
  0xf8, 0x58, 0x00, 0x3f, 0x1a, 0x3d, 0x69, 0x3e, 0x7b, 0xf4, 0xb3, 0xbe,
  0x48, 0x3d, 0x7c, 0xbd, 0x7f, 0x67, 0x01, 0x3f, 0x6a, 0xc5, 0xeb, 0x3d,
  0x14, 0x51, 0xb9, 0xbd, 0xc5, 0x05, 0x2a, 0xbc, 0x65, 0xc1, 0xb4, 0x3e,
  0x36, 0x4b, 0x84, 0x3d, 0x9a, 0xfb, 0xff, 0xff, 0x04, 0x00, 0x00, 0x00,
  0x04, 0x00, 0x00, 0x00, 0xfd, 0xff, 0xff, 0xff, 0xaa, 0xfb, 0xff, 0xff,
  0x04, 0x00, 0x00, 0x00, 0x08, 0x00, 0x00, 0x00, 0xff, 0xff, 0xff, 0xff,
  0x40, 0x00, 0x00, 0x00, 0xbe, 0xfb, 0xff, 0xff, 0x04, 0x00, 0x00, 0x00,
  0x04, 0x00, 0x00, 0x00, 0x02, 0x00, 0x00, 0x00, 0xce, 0xfb, 0xff, 0xff,
  0x04, 0x00, 0x00, 0x00, 0x10, 0x00, 0x00, 0x00, 0xae, 0x46, 0x72, 0x3f,
  0x0f, 0x9a, 0xac, 0xbf, 0xa0, 0x21, 0xa9, 0x3f, 0x9f, 0x74, 0x8c, 0xbf,
  0xea, 0xfb, 0xff, 0xff, 0x04, 0x00, 0x00, 0x00, 0x10, 0x00, 0x00, 0x00,
  0xba, 0xdc, 0x54, 0x3b, 0xe2, 0x0b, 0xc6, 0x3b, 0x56, 0xc5, 0x9a, 0x3b,
  0xda, 0xf1, 0xd4, 0x3b, 0x06, 0xfc, 0xff, 0xff, 0x04, 0x00, 0x00, 0x00,
  0x10, 0x00, 0x00, 0x00, 0xac, 0x5f, 0x3b, 0xbf, 0x8c, 0x5c, 0xc6, 0xbf,
  0xa1, 0x69, 0xb8, 0xbf, 0x34, 0x60, 0x86, 0xbf, 0x22, 0xfc, 0xff, 0xff,
  0x04, 0x00, 0x00, 0x00, 0x00, 0x03, 0x00, 0x00, 0x34, 0xc8, 0x8c, 0xbf,
  0x1e, 0xf1, 0xc4, 0xbf, 0x73, 0x80, 0x1a, 0xbe, 0x41, 0x7e, 0x07, 0xbe,
  0x9b, 0xa4, 0xb9, 0x3e, 0x27, 0xea, 0x8c, 0x3d, 0xbc, 0x4d, 0x61, 0xbf,
  0xaa, 0x80, 0x07, 0xc0, 0x83, 0x53, 0x23, 0xbf, 0xbb, 0x4c, 0x6f, 0xbe,
  0x83, 0x9f, 0xcc, 0xbd, 0xe0, 0x76, 0x7c, 0x3c, 0x58, 0xe6, 0xbe, 0xbf,
  0xdc, 0x0e, 0xe2, 0xbf, 0x7d, 0xb0, 0x5f, 0xbf, 0xac, 0x07, 0xc2, 0xbe,
  0x3f, 0xe9, 0x98, 0xbc, 0x98, 0x46, 0x5c, 0x3e, 0x9f, 0x2f, 0x85, 0xbf,
  0x36, 0x8e, 0x98, 0xbf, 0x99, 0x04, 0x18, 0xbf, 0xb5, 0xad, 0xd5, 0xbe,
  0x1b, 0x72, 0xc2, 0x3d, 0x05, 0xe3, 0xce, 0x3c, 0xe4, 0x9a, 0x7a, 0xbf,
  0x3c, 0x66, 0xb8, 0xbf, 0xa6, 0x2f, 0x48, 0xbe, 0xbd, 0xc0, 0x01, 0xbe,
  0x00, 0xbd, 0xf5, 0xbc, 0x04, 0x63, 0x3f, 0x3b, 0x09, 0x56, 0x54, 0xbf,
  0x24, 0x4e, 0xca, 0xbf, 0x52, 0xd5, 0x54, 0x3f, 0xa8, 0xe1, 0xf8, 0xbd,
  0xe7, 0x70, 0x95, 0x3e, 0x82, 0x5b, 0x45, 0xbd, 0xcc, 0xa9, 0x79, 0xbf,
  0x03, 0x90, 0xaa, 0xbf, 0xf6, 0x1c, 0xb3, 0x3f, 0xf6, 0x8d, 0xf3, 0xbd,
  0x6b, 0x02, 0x99, 0xbd, 0xe2, 0x49, 0xb0, 0x3c, 0xce, 0xcd, 0xea, 0xbe,
  0x52, 0x2a, 0x9b, 0xbf, 0xcc, 0x1b, 0xac, 0x3f, 0x63, 0x40, 0x70, 0xbe,
  0xb5, 0xae, 0x71, 0xbe, 0x6a, 0x0b, 0xee, 0x3d, 0x02, 0x9f, 0xc8, 0xbe,
  0xc6, 0x2a, 0xd6, 0xbf, 0xb7, 0x8e, 0x1c, 0x40, 0x4d, 0x45, 0x65, 0x3e,
  0x8a, 0xc9, 0x8d, 0x3d, 0x1e, 0xf2, 0x18, 0xbe, 0x53, 0x35, 0xda, 0xbd,
  0xfb, 0x96, 0x11, 0xc0, 0xca, 0xcb, 0x1d, 0x40, 0x79, 0x02, 0x33, 0x3e,
  0x5c, 0x10, 0xc9, 0xbd, 0x1b, 0x40, 0x4b, 0xbe, 0x19, 0x1c, 0xac, 0x3e,
  0xc3, 0x27, 0xb9, 0xbf, 0x38, 0x73, 0x16, 0x40, 0x63, 0x75, 0x52, 0x3a,
  0xff, 0x22, 0x21, 0x3d, 0xe7, 0x96, 0x60, 0xbd, 0x51, 0xc7, 0x24, 0xbf,
  0x3f, 0x7d, 0xd3, 0xbf, 0x55, 0x9e, 0x3b, 0x40, 0x8c, 0x61, 0x9a, 0x3e,
  0x8f, 0xc5, 0x18, 0xbe, 0x95, 0xc6, 0xaa, 0x3e, 0x2f, 0x3d, 0x95, 0xbf,
  0x2a, 0x17, 0xf5, 0xbd, 0x6f, 0x8e, 0x1b, 0x40, 0xe0, 0x16, 0x40, 0xbe,
  0x21, 0x1a, 0x37, 0x3d, 0x5c, 0x63, 0xc3, 0x3d, 0x35, 0xe1, 0x34, 0xbf,
  0xf1, 0xed, 0xdb, 0x3e, 0x83, 0xcf, 0x33, 0x40, 0x1c, 0x6b, 0xa5, 0xbd,
  0x92, 0x21, 0x16, 0x3e, 0x9c, 0xc5, 0x81, 0x3d, 0x3a, 0x9a, 0xd1, 0x3e,
  0x6a, 0xcc, 0x02, 0x3e, 0x6d, 0x65, 0x30, 0x40, 0x6d, 0x99, 0x8a, 0x3e,
  0x19, 0xf5, 0xfe, 0xbd, 0x57, 0xca, 0x69, 0xbe, 0x52, 0x80, 0xf0, 0x3e,
  0x21, 0x76, 0x5b, 0xbe, 0x33, 0x77, 0x3a, 0x40, 0xdc, 0xeb, 0x60, 0x3e,
  0xe7, 0x55, 0x09, 0x3d, 0xc8, 0xd4, 0xd4, 0x3b, 0x81, 0xb8, 0x69, 0xbc,
  0x2d, 0xb7, 0x4f, 0x3e, 0xf8, 0x56, 0x66, 0x3f, 0xc3, 0xd7, 0xda, 0xbe,
  0xd9, 0x04, 0x1d, 0x3f, 0xac, 0x3b, 0x03, 0xbe, 0x4a, 0x5f, 0x0a, 0xbf,
  0x86, 0x23, 0xa0, 0x3e, 0x27, 0x09, 0x13, 0x3f, 0x0c, 0xb7, 0x45, 0x3e,
  0xf6, 0x25, 0xdd, 0xbc, 0x90, 0xc9, 0x13, 0x3e, 0x08, 0x35, 0xcf, 0xbe,
  0x38, 0x08, 0x8d, 0x3f, 0x9c, 0x48, 0xa9, 0x3e, 0x4d, 0x1f, 0xbf, 0xbd,
  0xfd, 0x50, 0x1e, 0xbe, 0x00, 0x72, 0x0e, 0x3a, 0xad, 0xa0, 0x46, 0xbf,
  0x93, 0x6d, 0xd0, 0x3f, 0x01, 0x1f, 0x4f, 0xbd, 0xdb, 0xaa, 0x73, 0x3e,
  0x36, 0x77, 0x9d, 0xbe, 0xcd, 0x21, 0x01, 0x3e, 0xee, 0xfa, 0xb5, 0x3e,
  0x66, 0xfb, 0xca, 0x3f, 0x27, 0x4e, 0xec, 0x3e, 0x75, 0x89, 0xab, 0x3e,
  0xde, 0xac, 0x6b, 0xbe, 0xfe, 0xb9, 0x9f, 0xbd, 0x01, 0xf0, 0x2e, 0x3f,
  0x11, 0x7a, 0xc6, 0x3f, 0x7b, 0x89, 0x30, 0x3e, 0x18, 0x00, 0xd9, 0x3c,
  0xf1, 0x73, 0x24, 0x3e, 0x17, 0x2c, 0xaa, 0x3d, 0x14, 0x11, 0xf8, 0xbd,
  0xcb, 0x51, 0x6c, 0x3f, 0x6c, 0xa8, 0x92, 0x3e, 0x7f, 0x74, 0x73, 0x3b,
  0xa1, 0xae, 0x21, 0x3d, 0xd7, 0x92, 0xda, 0xbb, 0xac, 0x54, 0xb8, 0x3c,
  0x18, 0x5f, 0xe5, 0x3e, 0xfe, 0x4f, 0x08, 0x3f, 0x2e, 0xed, 0x9e, 0xbe,
  0x8b, 0x23, 0x80, 0x3e, 0x59, 0x61, 0xfa, 0xbd, 0xe7, 0xa1, 0x5c, 0xbd,
  0xc9, 0x65, 0xa6, 0x3f, 0xa7, 0x0b, 0xbb, 0xbe, 0x90, 0xed, 0x12, 0x3c,
  0x75, 0x0a, 0x3f, 0x3e, 0xab, 0x69, 0x50, 0xbe, 0xfc, 0xb7, 0x05, 0x3f,
  0x88, 0x92, 0xe7, 0x3f, 0x7f, 0xb1, 0x46, 0xbf, 0xbd, 0x1f, 0x67, 0xbe,
  0xec, 0x34, 0x6b, 0xbe, 0x19, 0x48, 0xd8, 0xbe, 0xbc, 0x3f, 0xb8, 0x3e,
  0xa3, 0xb6, 0xeb, 0x3f, 0x1b, 0x16, 0xbb, 0xbe, 0xac, 0x15, 0xca, 0x3d,
  0x72, 0x46, 0xef, 0xbd, 0x77, 0xfd, 0x4c, 0xbd, 0x61, 0x42, 0x13, 0x3f,
  0xef, 0xd7, 0xde, 0x3f, 0x83, 0xd7, 0xf5, 0x3e, 0x80, 0x10, 0x1f, 0x3d,
  0x30, 0xd4, 0x33, 0x3e, 0x13, 0x1f, 0x20, 0x3d, 0xd1, 0x4c, 0x16, 0x3f,
  0xb4, 0xe6, 0xe9, 0x3f, 0xf6, 0xb9, 0x65, 0x3e, 0x1f, 0xf4, 0x40, 0x3c,
  0x93, 0x0d, 0x1c, 0x3c, 0x73, 0x24, 0x50, 0xbe, 0xa7, 0xac, 0x5e, 0x3e,
  0x16, 0xd0, 0xdd, 0x3f, 0x40, 0x24, 0x8e, 0xbd, 0xb5, 0x35, 0x40, 0x3c,
  0x3c, 0x0a, 0xdd, 0x3d, 0x61, 0x8b, 0xa9, 0xbd, 0xe6, 0x29, 0x9a, 0x3e,
  0x6f, 0x48, 0xd8, 0x3f, 0x53, 0x63, 0x92, 0x3e, 0xb9, 0x77, 0xe8, 0xbd,
  0xb1, 0x1a, 0x17, 0x3c, 0xfe, 0x3b, 0x9a, 0x3c, 0xc0, 0x74, 0xad, 0xbe,
  0x21, 0x7f, 0xd2, 0x3f, 0x04, 0x64, 0x93, 0xbe, 0x90, 0x48, 0x39, 0x3e,
  0x35, 0x98, 0x0c, 0xbe, 0x0a, 0x70, 0x1c, 0x3f, 0x2e, 0xff, 0xff, 0xff,
  0x04, 0x00, 0x00, 0x00, 0x0c, 0x00, 0x00, 0x00, 0xff, 0xff, 0xff, 0xff,
  0x42, 0x00, 0x00, 0x00, 0x04, 0x00, 0x00, 0x00, 0x46, 0xff, 0xff, 0xff,
  0x04, 0x00, 0x00, 0x00, 0x10, 0x00, 0x00, 0x00, 0x0b, 0x3f, 0x25, 0xb8,
  0x73, 0xe5, 0xdc, 0x37, 0x3b, 0x55, 0xb9, 0x38, 0x82, 0x92, 0xb7, 0x38,
  0x24, 0xf2, 0xff, 0xff, 0x28, 0xf2, 0xff, 0xff, 0x0f, 0x00, 0x00, 0x00,
  0x4d, 0x4c, 0x49, 0x52, 0x20, 0x43, 0x6f, 0x6e, 0x76, 0x65, 0x72, 0x74,
  0x65, 0x64, 0x2e, 0x00, 0x01, 0x00, 0x00, 0x00, 0x14, 0x00, 0x00, 0x00,
  0x00, 0x00, 0x0e, 0x00, 0x18, 0x00, 0x14, 0x00, 0x10, 0x00, 0x0c, 0x00,
  0x08, 0x00, 0x04, 0x00, 0x0e, 0x00, 0x00, 0x00, 0x14, 0x00, 0x00, 0x00,
  0x1c, 0x00, 0x00, 0x00, 0x80, 0x02, 0x00, 0x00, 0x84, 0x02, 0x00, 0x00,
  0x88, 0x02, 0x00, 0x00, 0x04, 0x00, 0x00, 0x00, 0x6d, 0x61, 0x69, 0x6e,
  0x00, 0x00, 0x00, 0x00, 0x0a, 0x00, 0x00, 0x00, 0x38, 0x02, 0x00, 0x00,
  0xdc, 0x01, 0x00, 0x00, 0xa4, 0x01, 0x00, 0x00, 0x68, 0x01, 0x00, 0x00,
  0x14, 0x01, 0x00, 0x00, 0xe0, 0x00, 0x00, 0x00, 0xa0, 0x00, 0x00, 0x00,
  0x78, 0x00, 0x00, 0x00, 0x40, 0x00, 0x00, 0x00, 0x04, 0x00, 0x00, 0x00,
  0x56, 0xfe, 0xff, 0xff, 0x1c, 0x00, 0x00, 0x00, 0x00, 0x00, 0x00, 0x09,
  0x1c, 0x00, 0x00, 0x00, 0x20, 0x00, 0x00, 0x00, 0x07, 0x00, 0x00, 0x00,
  0x00, 0x00, 0x06, 0x00, 0x08, 0x00, 0x04, 0x00, 0x06, 0x00, 0x00, 0x00,
  0x00, 0x00, 0x80, 0x3f, 0x01, 0x00, 0x00, 0x00, 0x14, 0x00, 0x00, 0x00,
  0x01, 0x00, 0x00, 0x00, 0x13, 0x00, 0x00, 0x00, 0x8e, 0xfe, 0xff, 0xff,
  0x14, 0x00, 0x00, 0x00, 0x00, 0x00, 0x00, 0x08, 0x10, 0x00, 0x00, 0x00,
  0x14, 0x00, 0x00, 0x00, 0x06, 0x00, 0x00, 0x00, 0xf8, 0xf2, 0xff, 0xff,
  0x01, 0x00, 0x00, 0x00, 0x13, 0x00, 0x00, 0x00, 0x03, 0x00, 0x00, 0x00,
  0x12, 0x00, 0x00, 0x00, 0x0a, 0x00, 0x00, 0x00, 0x06, 0x00, 0x00, 0x00,
  0xf2, 0xfe, 0xff, 0xff, 0x0c, 0x00, 0x00, 0x00, 0x10, 0x00, 0x00, 0x00,
  0x02, 0x00, 0x00, 0x00, 0x01, 0x00, 0x00, 0x00, 0x12, 0x00, 0x00, 0x00,
  0x02, 0x00, 0x00, 0x00, 0x11, 0x00, 0x00, 0x00, 0x08, 0x00, 0x00, 0x00,
  0xe6, 0xfe, 0xff, 0xff, 0x1c, 0x00, 0x00, 0x00, 0x00, 0x00, 0x00, 0x0b,
  0x1c, 0x00, 0x00, 0x00, 0x20, 0x00, 0x00, 0x00, 0x05, 0x00, 0x00, 0x00,
  0x00, 0x00, 0x06, 0x00, 0x08, 0x00, 0x07, 0x00, 0x06, 0x00, 0x00, 0x00,
  0x00, 0x00, 0x00, 0x01, 0x01, 0x00, 0x00, 0x00, 0x11, 0x00, 0x00, 0x00,
  0x02, 0x00, 0x00, 0x00, 0x10, 0x00, 0x00, 0x00, 0x04, 0x00, 0x00, 0x00,
  0x22, 0xff, 0xff, 0xff, 0x14, 0x00, 0x00, 0x00, 0x00, 0x00, 0x00, 0x15,
  0x10, 0x00, 0x00, 0x00, 0x14, 0x00, 0x00, 0x00, 0x04, 0x00, 0x00, 0x00,
  0x8c, 0xf3, 0xff, 0xff, 0x01, 0x00, 0x00, 0x00, 0x10, 0x00, 0x00, 0x00,
  0x02, 0x00, 0x00, 0x00, 0x0f, 0x00, 0x00, 0x00, 0x05, 0x00, 0x00, 0x00,
  0x52, 0xff, 0xff, 0xff, 0x24, 0x00, 0x00, 0x00, 0x00, 0x00, 0x00, 0x05,
  0x34, 0x00, 0x00, 0x00, 0x38, 0x00, 0x00, 0x00, 0x03, 0x00, 0x00, 0x00,
  0x00, 0x00, 0x0e, 0x00, 0x18, 0x00, 0x17, 0x00, 0x10, 0x00, 0x0c, 0x00,
  0x08, 0x00, 0x04, 0x00, 0x0e, 0x00, 0x00, 0x00, 0x04, 0x00, 0x00, 0x00,
  0x01, 0x00, 0x00, 0x00, 0x04, 0x00, 0x00, 0x00, 0x01, 0x00, 0x00, 0x00,
  0x00, 0x00, 0x00, 0x01, 0x01, 0x00, 0x00, 0x00, 0x0f, 0x00, 0x00, 0x00,
  0x01, 0x00, 0x00, 0x00, 0x0e, 0x00, 0x00, 0x00, 0x4a, 0xff, 0xff, 0xff,
  0x10, 0x00, 0x00, 0x00, 0x00, 0x00, 0x00, 0x34, 0x0c, 0x00, 0x00, 0x00,
  0x10, 0x00, 0x00, 0x00, 0x08, 0xf4, 0xff, 0xff, 0x01, 0x00, 0x00, 0x00,
  0x0e, 0x00, 0x00, 0x00, 0x02, 0x00, 0x00, 0x00, 0x0d, 0x00, 0x00, 0x00,
  0x07, 0x00, 0x00, 0x00, 0x00, 0x00, 0x0a, 0x00, 0x10, 0x00, 0x0c, 0x00,
  0x08, 0x00, 0x04, 0x00, 0x0a, 0x00, 0x00, 0x00, 0x0c, 0x00, 0x00, 0x00,
  0x10, 0x00, 0x00, 0x00, 0x02, 0x00, 0x00, 0x00, 0x01, 0x00, 0x00, 0x00,
  0x0d, 0x00, 0x00, 0x00, 0x02, 0x00, 0x00, 0x00, 0x0c, 0x00, 0x00, 0x00,
  0x02, 0x00, 0x00, 0x00, 0x00, 0x00, 0x0e, 0x00, 0x1a, 0x00, 0x14, 0x00,
  0x10, 0x00, 0x0c, 0x00, 0x0b, 0x00, 0x04, 0x00, 0x0e, 0x00, 0x00, 0x00,
  0x20, 0x00, 0x00, 0x00, 0x00, 0x00, 0x00, 0x01, 0x24, 0x00, 0x00, 0x00,
  0x28, 0x00, 0x00, 0x00, 0x01, 0x00, 0x00, 0x00, 0x00, 0x00, 0x0a, 0x00,
  0x0c, 0x00, 0x00, 0x00, 0x08, 0x00, 0x04, 0x00, 0x0a, 0x00, 0x00, 0x00,
  0x01, 0x00, 0x00, 0x00, 0x01, 0x00, 0x00, 0x00, 0x01, 0x00, 0x00, 0x00,
  0x0c, 0x00, 0x00, 0x00, 0x03, 0x00, 0x00, 0x00, 0x0b, 0x00, 0x00, 0x00,
  0x03, 0x00, 0x00, 0x00, 0x01, 0x00, 0x00, 0x00, 0x00, 0x00, 0x0e, 0x00,
  0x14, 0x00, 0x00, 0x00, 0x10, 0x00, 0x0c, 0x00, 0x0b, 0x00, 0x04, 0x00,
  0x0e, 0x00, 0x00, 0x00, 0x10, 0x00, 0x00, 0x00, 0x00, 0x00, 0x00, 0x34,
  0x0c, 0x00, 0x00, 0x00, 0x10, 0x00, 0x00, 0x00, 0xcc, 0xf4, 0xff, 0xff,
  0x01, 0x00, 0x00, 0x00, 0x0b, 0x00, 0x00, 0x00, 0x02, 0x00, 0x00, 0x00,
  0x00, 0x00, 0x00, 0x00, 0x09, 0x00, 0x00, 0x00, 0x01, 0x00, 0x00, 0x00,
  0x14, 0x00, 0x00, 0x00, 0x01, 0x00, 0x00, 0x00, 0x00, 0x00, 0x00, 0x00,
  0x15, 0x00, 0x00, 0x00, 0x6c, 0x0a, 0x00, 0x00, 0xf8, 0x09, 0x00, 0x00,
  0x88, 0x09, 0x00, 0x00, 0x18, 0x09, 0x00, 0x00, 0xb8, 0x08, 0x00, 0x00,
  0x58, 0x08, 0x00, 0x00, 0xfc, 0x07, 0x00, 0x00, 0xa0, 0x07, 0x00, 0x00,
  0x50, 0x07, 0x00, 0x00, 0xf4, 0x06, 0x00, 0x00, 0xa4, 0x06, 0x00, 0x00,
  0x28, 0x06, 0x00, 0x00, 0x40, 0x05, 0x00, 0x00, 0x80, 0x04, 0x00, 0x00,
  0x04, 0x04, 0x00, 0x00, 0x8c, 0x03, 0x00, 0x00, 0xac, 0x02, 0x00, 0x00,
  0x44, 0x01, 0x00, 0x00, 0xe0, 0x00, 0x00, 0x00, 0x60, 0x00, 0x00, 0x00,
  0x04, 0x00, 0x00, 0x00, 0xfe, 0xf5, 0xff, 0xff, 0x00, 0x00, 0x00, 0x01,
  0x14, 0x00, 0x00, 0x00, 0x1c, 0x00, 0x00, 0x00, 0x1c, 0x00, 0x00, 0x00,
  0x15, 0x00, 0x00, 0x00, 0x34, 0x00, 0x00, 0x00, 0x02, 0x00, 0x00, 0x00,
  0xff, 0xff, 0xff, 0xff, 0x04, 0x00, 0x00, 0x00, 0x74, 0xf5, 0xff, 0xff,
  0x19, 0x00, 0x00, 0x00, 0x53, 0x74, 0x61, 0x74, 0x65, 0x66, 0x75, 0x6c,
  0x50, 0x61, 0x72, 0x74, 0x69, 0x74, 0x69, 0x6f, 0x6e, 0x65, 0x64, 0x43,
  0x61, 0x6c, 0x6c, 0x3a, 0x30, 0x00, 0x00, 0x00, 0x02, 0x00, 0x00, 0x00,
  0x01, 0x00, 0x00, 0x00, 0x04, 0x00, 0x00, 0x00, 0x56, 0xf6, 0xff, 0xff,
  0x00, 0x00, 0x00, 0x01, 0x14, 0x00, 0x00, 0x00, 0x1c, 0x00, 0x00, 0x00,
  0x1c, 0x00, 0x00, 0x00, 0x14, 0x00, 0x00, 0x00, 0x58, 0x00, 0x00, 0x00,
  0x02, 0x00, 0x00, 0x00, 0xff, 0xff, 0xff, 0xff, 0x04, 0x00, 0x00, 0x00,
  0xcc, 0xf5, 0xff, 0xff, 0x3c, 0x00, 0x00, 0x00, 0x73, 0x65, 0x71, 0x75,
  0x65, 0x6e, 0x74, 0x69, 0x61, 0x6c, 0x5f, 0x33, 0x38, 0x2f, 0x64, 0x65,
  0x6e, 0x73, 0x65, 0x5f, 0x36, 0x32, 0x2f, 0x4d, 0x61, 0x74, 0x4d, 0x75,
  0x6c, 0x3b, 0x73, 0x65, 0x71, 0x75, 0x65, 0x6e, 0x74, 0x69, 0x61, 0x6c,
  0x5f, 0x33, 0x38, 0x2f, 0x64, 0x65, 0x6e, 0x73, 0x65, 0x5f, 0x36, 0x32,
  0x2f, 0x42, 0x69, 0x61, 0x73, 0x41, 0x64, 0x64, 0x00, 0x00, 0x00, 0x00,
  0x02, 0x00, 0x00, 0x00, 0x01, 0x00, 0x00, 0x00, 0x04, 0x00, 0x00, 0x00,
  0xd2, 0xf6, 0xff, 0xff, 0x00, 0x00, 0x00, 0x01, 0x14, 0x00, 0x00, 0x00,
  0x1c, 0x00, 0x00, 0x00, 0x1c, 0x00, 0x00, 0x00, 0x13, 0x00, 0x00, 0x00,
  0x3c, 0x00, 0x00, 0x00, 0x02, 0x00, 0x00, 0x00, 0xff, 0xff, 0xff, 0xff,
  0x40, 0x00, 0x00, 0x00, 0x48, 0xf6, 0xff, 0xff, 0x20, 0x00, 0x00, 0x00,
  0x73, 0x65, 0x71, 0x75, 0x65, 0x6e, 0x74, 0x69, 0x61, 0x6c, 0x5f, 0x33,
  0x38, 0x2f, 0x66, 0x6c, 0x61, 0x74, 0x74, 0x65, 0x6e, 0x5f, 0x33, 0x38,
  0x2f, 0x52, 0x65, 0x73, 0x68, 0x61, 0x70, 0x65, 0x00, 0x00, 0x00, 0x00,
  0x02, 0x00, 0x00, 0x00, 0x01, 0x00, 0x00, 0x00, 0x40, 0x00, 0x00, 0x00,
  0x32, 0xf7, 0xff, 0xff, 0x00, 0x00, 0x00, 0x01, 0x14, 0x00, 0x00, 0x00,
  0x24, 0x00, 0x00, 0x00, 0x24, 0x00, 0x00, 0x00, 0x12, 0x00, 0x00, 0x00,
  0x38, 0x01, 0x00, 0x00, 0x04, 0x00, 0x00, 0x00, 0xff, 0xff, 0xff, 0xff,
  0x10, 0x00, 0x00, 0x00, 0x01, 0x00, 0x00, 0x00, 0x04, 0x00, 0x00, 0x00,
  0xb0, 0xf6, 0xff, 0xff, 0x17, 0x01, 0x00, 0x00, 0x73, 0x65, 0x71, 0x75,
  0x65, 0x6e, 0x74, 0x69, 0x61, 0x6c, 0x5f, 0x33, 0x38, 0x2f, 0x61, 0x63,
  0x74, 0x69, 0x76, 0x61, 0x74, 0x69, 0x6f, 0x6e, 0x5f, 0x34, 0x38, 0x2f,
  0x52, 0x65, 0x6c, 0x75, 0x3b, 0x73, 0x65, 0x71, 0x75, 0x65, 0x6e, 0x74,
  0x69, 0x61, 0x6c, 0x5f, 0x33, 0x38, 0x2f, 0x62, 0x61, 0x74, 0x63, 0x68,
  0x5f, 0x6e, 0x6f, 0x72, 0x6d, 0x61, 0x6c, 0x69, 0x7a, 0x61, 0x74, 0x69,
  0x6f, 0x6e, 0x5f, 0x34, 0x38, 0x2f, 0x62, 0x61, 0x74, 0x63, 0x68, 0x6e,
  0x6f, 0x72, 0x6d, 0x2f, 0x61, 0x64, 0x64, 0x5f, 0x31, 0x3b, 0x73, 0x65,
  0x71, 0x75, 0x65, 0x6e, 0x74, 0x69, 0x61, 0x6c, 0x5f, 0x33, 0x38, 0x2f,
  0x6d, 0x61, 0x78, 0x5f, 0x70, 0x6f, 0x6f, 0x6c, 0x69, 0x6e, 0x67, 0x31,
  0x64, 0x5f, 0x32, 0x36, 0x2f, 0x53, 0x71, 0x75, 0x65, 0x65, 0x7a, 0x65,
  0x3b, 0x73, 0x65, 0x71, 0x75, 0x65, 0x6e, 0x74, 0x69, 0x61, 0x6c, 0x5f,
  0x33, 0x38, 0x2f, 0x62, 0x61, 0x74, 0x63, 0x68, 0x5f, 0x6e, 0x6f, 0x72,
  0x6d, 0x61, 0x6c, 0x69, 0x7a, 0x61, 0x74, 0x69, 0x6f, 0x6e, 0x5f, 0x34,
  0x38, 0x2f, 0x62, 0x61, 0x74, 0x63, 0x68, 0x6e, 0x6f, 0x72, 0x6d, 0x2f,
  0x6d, 0x75, 0x6c, 0x5f, 0x31, 0x3b, 0x73, 0x65, 0x71, 0x75, 0x65, 0x6e,
  0x74, 0x69, 0x61, 0x6c, 0x5f, 0x33, 0x38, 0x2f, 0x62, 0x61, 0x74, 0x63,
  0x68, 0x5f, 0x6e, 0x6f, 0x72, 0x6d, 0x61, 0x6c, 0x69, 0x7a, 0x61, 0x74,
  0x69, 0x6f, 0x6e, 0x5f, 0x34, 0x38, 0x2f, 0x62, 0x61, 0x74, 0x63, 0x68,
  0x6e, 0x6f, 0x72, 0x6d, 0x2f, 0x6d, 0x75, 0x6c, 0x3b, 0x73, 0x65, 0x71,
  0x75, 0x65, 0x6e, 0x74, 0x69, 0x61, 0x6c, 0x5f, 0x33, 0x38, 0x2f, 0x62,
  0x61, 0x74, 0x63, 0x68, 0x5f, 0x6e, 0x6f, 0x72, 0x6d, 0x61, 0x6c, 0x69,
  0x7a, 0x61, 0x74, 0x69, 0x6f, 0x6e, 0x5f, 0x34, 0x38, 0x2f, 0x62, 0x61,
  0x74, 0x63, 0x68, 0x6e, 0x6f, 0x72, 0x6d, 0x2f, 0x73, 0x75, 0x62, 0x00,
  0x04, 0x00, 0x00, 0x00, 0x01, 0x00, 0x00, 0x00, 0x10, 0x00, 0x00, 0x00,
  0x01, 0x00, 0x00, 0x00, 0x04, 0x00, 0x00, 0x00, 0x96, 0xf8, 0xff, 0xff,
  0x00, 0x00, 0x00, 0x01, 0x14, 0x00, 0x00, 0x00, 0x24, 0x00, 0x00, 0x00,
  0x24, 0x00, 0x00, 0x00, 0x11, 0x00, 0x00, 0x00, 0xb0, 0x00, 0x00, 0x00,
  0x04, 0x00, 0x00, 0x00, 0xff, 0xff, 0xff, 0xff, 0x10, 0x00, 0x00, 0x00,
  0x01, 0x00, 0x00, 0x00, 0x04, 0x00, 0x00, 0x00, 0x14, 0xf8, 0xff, 0xff,
  0x8e, 0x00, 0x00, 0x00, 0x73, 0x65, 0x71, 0x75, 0x65, 0x6e, 0x74, 0x69,
  0x61, 0x6c, 0x5f, 0x33, 0x38, 0x2f, 0x62, 0x61, 0x74, 0x63, 0x68, 0x5f,
  0x6e, 0x6f, 0x72, 0x6d, 0x61, 0x6c, 0x69, 0x7a, 0x61, 0x74, 0x69, 0x6f,
  0x6e, 0x5f, 0x34, 0x38, 0x2f, 0x62, 0x61, 0x74, 0x63, 0x68, 0x6e, 0x6f,
  0x72, 0x6d, 0x2f, 0x6d, 0x75, 0x6c, 0x5f, 0x31, 0x3b, 0x73, 0x65, 0x71,
  0x75, 0x65, 0x6e, 0x74, 0x69, 0x61, 0x6c, 0x5f, 0x33, 0x38, 0x2f, 0x6d,
  0x61, 0x78, 0x5f, 0x70, 0x6f, 0x6f, 0x6c, 0x69, 0x6e, 0x67, 0x31, 0x64,
  0x5f, 0x32, 0x36, 0x2f, 0x53, 0x71, 0x75, 0x65, 0x65, 0x7a, 0x65, 0x3b,
  0x73, 0x65, 0x71, 0x75, 0x65, 0x6e, 0x74, 0x69, 0x61, 0x6c, 0x5f, 0x33,
  0x38, 0x2f, 0x62, 0x61, 0x74, 0x63, 0x68, 0x5f, 0x6e, 0x6f, 0x72, 0x6d,
  0x61, 0x6c, 0x69, 0x7a, 0x61, 0x74, 0x69, 0x6f, 0x6e, 0x5f, 0x34, 0x38,
  0x2f, 0x62, 0x61, 0x74, 0x63, 0x68, 0x6e, 0x6f, 0x72, 0x6d, 0x2f, 0x6d,
  0x75, 0x6c, 0x00, 0x00, 0x04, 0x00, 0x00, 0x00, 0x01, 0x00, 0x00, 0x00,
  0x10, 0x00, 0x00, 0x00, 0x01, 0x00, 0x00, 0x00, 0x04, 0x00, 0x00, 0x00,
  0x72, 0xf9, 0xff, 0xff, 0x00, 0x00, 0x00, 0x01, 0x14, 0x00, 0x00, 0x00,
  0x24, 0x00, 0x00, 0x00, 0x24, 0x00, 0x00, 0x00, 0x10, 0x00, 0x00, 0x00,
  0x48, 0x00, 0x00, 0x00, 0x04, 0x00, 0x00, 0x00, 0xff, 0xff, 0xff, 0xff,
  0x10, 0x00, 0x00, 0x00, 0x01, 0x00, 0x00, 0x00, 0x04, 0x00, 0x00, 0x00,
  0xf0, 0xf8, 0xff, 0xff, 0x26, 0x00, 0x00, 0x00, 0x73, 0x65, 0x71, 0x75,
  0x65, 0x6e, 0x74, 0x69, 0x61, 0x6c, 0x5f, 0x33, 0x38, 0x2f, 0x6d, 0x61,
  0x78, 0x5f, 0x70, 0x6f, 0x6f, 0x6c, 0x69, 0x6e, 0x67, 0x31, 0x64, 0x5f,
  0x32, 0x36, 0x2f, 0x4d, 0x61, 0x78, 0x50, 0x6f, 0x6f, 0x6c, 0x00, 0x00,
  0x04, 0x00, 0x00, 0x00, 0x01, 0x00, 0x00, 0x00, 0x10, 0x00, 0x00, 0x00,
  0x01, 0x00, 0x00, 0x00, 0x04, 0x00, 0x00, 0x00, 0xe6, 0xf9, 0xff, 0xff,
  0x00, 0x00, 0x00, 0x01, 0x14, 0x00, 0x00, 0x00, 0x24, 0x00, 0x00, 0x00,
  0x24, 0x00, 0x00, 0x00, 0x0f, 0x00, 0x00, 0x00, 0x4c, 0x00, 0x00, 0x00,
  0x04, 0x00, 0x00, 0x00, 0xff, 0xff, 0xff, 0xff, 0x42, 0x00, 0x00, 0x00,
  0x01, 0x00, 0x00, 0x00, 0x04, 0x00, 0x00, 0x00, 0x64, 0xf9, 0xff, 0xff,
  0x29, 0x00, 0x00, 0x00, 0x73, 0x65, 0x71, 0x75, 0x65, 0x6e, 0x74, 0x69,
  0x61, 0x6c, 0x5f, 0x33, 0x38, 0x2f, 0x6d, 0x61, 0x78, 0x5f, 0x70, 0x6f,
  0x6f, 0x6c, 0x69, 0x6e, 0x67, 0x31, 0x64, 0x5f, 0x32, 0x36, 0x2f, 0x45,
  0x78, 0x70, 0x61, 0x6e, 0x64, 0x44, 0x69, 0x6d, 0x73, 0x00, 0x00, 0x00,
  0x04, 0x00, 0x00, 0x00, 0x01, 0x00, 0x00, 0x00, 0x42, 0x00, 0x00, 0x00,
  0x01, 0x00, 0x00, 0x00, 0x04, 0x00, 0x00, 0x00, 0x5e, 0xfa, 0xff, 0xff,
  0x00, 0x00, 0x00, 0x01, 0x14, 0x00, 0x00, 0x00, 0x20, 0x00, 0x00, 0x00,
  0x20, 0x00, 0x00, 0x00, 0x0e, 0x00, 0x00, 0x00, 0x94, 0x00, 0x00, 0x00,
  0x03, 0x00, 0x00, 0x00, 0xff, 0xff, 0xff, 0xff, 0x42, 0x00, 0x00, 0x00,
  0x04, 0x00, 0x00, 0x00, 0xd8, 0xf9, 0xff, 0xff, 0x75, 0x00, 0x00, 0x00,
  0x73, 0x65, 0x71, 0x75, 0x65, 0x6e, 0x74, 0x69, 0x61, 0x6c, 0x5f, 0x33,
  0x38, 0x2f, 0x63, 0x6f, 0x6e, 0x76, 0x31, 0x64, 0x5f, 0x34, 0x36, 0x2f,
  0x42, 0x69, 0x61, 0x73, 0x41, 0x64, 0x64, 0x3b, 0x73, 0x65, 0x71, 0x75,
  0x65, 0x6e, 0x74, 0x69, 0x61, 0x6c, 0x5f, 0x33, 0x38, 0x2f, 0x63, 0x6f,
  0x6e, 0x76, 0x31, 0x64, 0x5f, 0x34, 0x36, 0x2f, 0x43, 0x6f, 0x6e, 0x76,
  0x31, 0x44, 0x2f, 0x53, 0x71, 0x75, 0x65, 0x65, 0x7a, 0x65, 0x3b, 0x73,
  0x65, 0x71, 0x75, 0x65, 0x6e, 0x74, 0x69, 0x61, 0x6c, 0x5f, 0x33, 0x38,
  0x2f, 0x63, 0x6f, 0x6e, 0x76, 0x31, 0x64, 0x5f, 0x34, 0x36, 0x2f, 0x42,
  0x69, 0x61, 0x73, 0x41, 0x64, 0x64, 0x2f, 0x52, 0x65, 0x61, 0x64, 0x56,
  0x61, 0x72, 0x69, 0x61, 0x62, 0x6c, 0x65, 0x4f, 0x70, 0x00, 0x00, 0x00,
  0x03, 0x00, 0x00, 0x00, 0x01, 0x00, 0x00, 0x00, 0x42, 0x00, 0x00, 0x00,
  0x04, 0x00, 0x00, 0x00, 0x1a, 0xfb, 0xff, 0xff, 0x00, 0x00, 0x00, 0x01,
  0x14, 0x00, 0x00, 0x00, 0x24, 0x00, 0x00, 0x00, 0x24, 0x00, 0x00, 0x00,
  0x0d, 0x00, 0x00, 0x00, 0xb8, 0x00, 0x00, 0x00, 0x04, 0x00, 0x00, 0x00,
  0xff, 0xff, 0xff, 0xff, 0x01, 0x00, 0x00, 0x00, 0x42, 0x00, 0x00, 0x00,
  0x04, 0x00, 0x00, 0x00, 0x98, 0xfa, 0xff, 0xff, 0x94, 0x00, 0x00, 0x00,
  0x73, 0x65, 0x71, 0x75, 0x65, 0x6e, 0x74, 0x69, 0x61, 0x6c, 0x5f, 0x33,
  0x38, 0x2f, 0x63, 0x6f, 0x6e, 0x76, 0x31, 0x64, 0x5f, 0x34, 0x36, 0x2f,
  0x42, 0x69, 0x61, 0x73, 0x41, 0x64, 0x64, 0x3b, 0x73, 0x65, 0x71, 0x75,
  0x65, 0x6e, 0x74, 0x69, 0x61, 0x6c, 0x5f, 0x33, 0x38, 0x2f, 0x63, 0x6f,
  0x6e, 0x76, 0x31, 0x64, 0x5f, 0x34, 0x36, 0x2f, 0x43, 0x6f, 0x6e, 0x76,
  0x31, 0x44, 0x2f, 0x53, 0x71, 0x75, 0x65, 0x65, 0x7a, 0x65, 0x3b, 0x73,
  0x65, 0x71, 0x75, 0x65, 0x6e, 0x74, 0x69, 0x61, 0x6c, 0x5f, 0x33, 0x38,
  0x2f, 0x63, 0x6f, 0x6e, 0x76, 0x31, 0x64, 0x5f, 0x34, 0x36, 0x2f, 0x42,
  0x69, 0x61, 0x73, 0x41, 0x64, 0x64, 0x2f, 0x52, 0x65, 0x61, 0x64, 0x56,
  0x61, 0x72, 0x69, 0x61, 0x62, 0x6c, 0x65, 0x4f, 0x70, 0x3b, 0x73, 0x65,
  0x71, 0x75, 0x65, 0x6e, 0x74, 0x69, 0x61, 0x6c, 0x5f, 0x33, 0x38, 0x2f,
  0x63, 0x6f, 0x6e, 0x76, 0x31, 0x64, 0x5f, 0x34, 0x36, 0x2f, 0x43, 0x6f,
  0x6e, 0x76, 0x31, 0x44, 0x00, 0x00, 0x00, 0x00, 0x04, 0x00, 0x00, 0x00,
  0x01, 0x00, 0x00, 0x00, 0x01, 0x00, 0x00, 0x00, 0x42, 0x00, 0x00, 0x00,
  0x04, 0x00, 0x00, 0x00, 0xfe, 0xfb, 0xff, 0xff, 0x00, 0x00, 0x00, 0x01,
  0x14, 0x00, 0x00, 0x00, 0x24, 0x00, 0x00, 0x00, 0x24, 0x00, 0x00, 0x00,
  0x0c, 0x00, 0x00, 0x00, 0x4c, 0x00, 0x00, 0x00, 0x04, 0x00, 0x00, 0x00,
  0xff, 0xff, 0xff, 0xff, 0x01, 0x00, 0x00, 0x00, 0x42, 0x00, 0x00, 0x00,
  0x06, 0x00, 0x00, 0x00, 0x7c, 0xfb, 0xff, 0xff, 0x29, 0x00, 0x00, 0x00,
  0x73, 0x65, 0x71, 0x75, 0x65, 0x6e, 0x74, 0x69, 0x61, 0x6c, 0x5f, 0x33,
  0x38, 0x2f, 0x63, 0x6f, 0x6e, 0x76, 0x31, 0x64, 0x5f, 0x34, 0x36, 0x2f,
  0x43, 0x6f, 0x6e, 0x76, 0x31, 0x44, 0x2f, 0x45, 0x78, 0x70, 0x61, 0x6e,
  0x64, 0x44, 0x69, 0x6d, 0x73, 0x00, 0x00, 0x00, 0x04, 0x00, 0x00, 0x00,
  0x01, 0x00, 0x00, 0x00, 0x01, 0x00, 0x00, 0x00, 0x42, 0x00, 0x00, 0x00,
  0x06, 0x00, 0x00, 0x00, 0xe6, 0xfc, 0xff, 0xff, 0x00, 0x00, 0x00, 0x01,
  0x10, 0x00, 0x00, 0x00, 0x10, 0x00, 0x00, 0x00, 0x0b, 0x00, 0x00, 0x00,
  0x2c, 0x00, 0x00, 0x00, 0xdc, 0xfb, 0xff, 0xff, 0x1d, 0x00, 0x00, 0x00,
  0x73, 0x65, 0x71, 0x75, 0x65, 0x6e, 0x74, 0x69, 0x61, 0x6c, 0x5f, 0x33,
  0x38, 0x2f, 0x64, 0x65, 0x6e, 0x73, 0x65, 0x5f, 0x36, 0x32, 0x2f, 0x4d,
  0x61, 0x74, 0x4d, 0x75, 0x6c, 0x00, 0x00, 0x00, 0x02, 0x00, 0x00, 0x00,
  0x04, 0x00, 0x00, 0x00, 0x40, 0x00, 0x00, 0x00, 0x9e, 0xfd, 0xff, 0xff,
  0x00, 0x00, 0x00, 0x01, 0x14, 0x00, 0x00, 0x00, 0x14, 0x00, 0x00, 0x00,
  0x0a, 0x00, 0x00, 0x00, 0x00, 0x00, 0x00, 0x02, 0x3c, 0x00, 0x00, 0x00,
  0x2c, 0xfc, 0xff, 0xff, 0x2d, 0x00, 0x00, 0x00, 0x73, 0x65, 0x71, 0x75,
  0x65, 0x6e, 0x74, 0x69, 0x61, 0x6c, 0x5f, 0x33, 0x38, 0x2f, 0x63, 0x6f,
  0x6e, 0x76, 0x31, 0x64, 0x5f, 0x34, 0x36, 0x2f, 0x43, 0x6f, 0x6e, 0x76,
  0x31, 0x44, 0x2f, 0x45, 0x78, 0x70, 0x61, 0x6e, 0x64, 0x44, 0x69, 0x6d,
  0x73, 0x2f, 0x64, 0x69, 0x6d, 0x00, 0x00, 0x00, 0x00, 0x00, 0x00, 0x00,
  0xf6, 0xfd, 0xff, 0xff, 0x00, 0x00, 0x00, 0x01, 0x14, 0x00, 0x00, 0x00,
  0x14, 0x00, 0x00, 0x00, 0x09, 0x00, 0x00, 0x00, 0x00, 0x00, 0x00, 0x02,
  0x2c, 0x00, 0x00, 0x00, 0x84, 0xfc, 0xff, 0xff, 0x1e, 0x00, 0x00, 0x00,
  0x73, 0x65, 0x71, 0x75, 0x65, 0x6e, 0x74, 0x69, 0x61, 0x6c, 0x5f, 0x33,
  0x38, 0x2f, 0x66, 0x6c, 0x61, 0x74, 0x74, 0x65, 0x6e, 0x5f, 0x33, 0x38,
  0x2f, 0x43, 0x6f, 0x6e, 0x73, 0x74, 0x00, 0x00, 0x01, 0x00, 0x00, 0x00,
  0x02, 0x00, 0x00, 0x00, 0x42, 0xfe, 0xff, 0xff, 0x00, 0x00, 0x00, 0x01,
  0x14, 0x00, 0x00, 0x00, 0x14, 0x00, 0x00, 0x00, 0x08, 0x00, 0x00, 0x00,
  0x00, 0x00, 0x00, 0x02, 0x3c, 0x00, 0x00, 0x00, 0xd0, 0xfc, 0xff, 0xff,
  0x2d, 0x00, 0x00, 0x00, 0x73, 0x65, 0x71, 0x75, 0x65, 0x6e, 0x74, 0x69,
  0x61, 0x6c, 0x5f, 0x33, 0x38, 0x2f, 0x6d, 0x61, 0x78, 0x5f, 0x70, 0x6f,
  0x6f, 0x6c, 0x69, 0x6e, 0x67, 0x31, 0x64, 0x5f, 0x32, 0x36, 0x2f, 0x45,
  0x78, 0x70, 0x61, 0x6e, 0x64, 0x44, 0x69, 0x6d, 0x73, 0x2f, 0x64, 0x69,
  0x6d, 0x00, 0x00, 0x00, 0x00, 0x00, 0x00, 0x00, 0x2e, 0xfe, 0xff, 0xff,
  0x00, 0x00, 0x00, 0x01, 0x10, 0x00, 0x00, 0x00, 0x10, 0x00, 0x00, 0x00,
  0x07, 0x00, 0x00, 0x00, 0x3c, 0x00, 0x00, 0x00, 0x24, 0xfd, 0xff, 0xff,
  0x2d, 0x00, 0x00, 0x00, 0x73, 0x65, 0x71, 0x75, 0x65, 0x6e, 0x74, 0x69,
  0x61, 0x6c, 0x5f, 0x33, 0x38, 0x2f, 0x64, 0x65, 0x6e, 0x73, 0x65, 0x5f,
  0x36, 0x32, 0x2f, 0x42, 0x69, 0x61, 0x73, 0x41, 0x64, 0x64, 0x2f, 0x52,
  0x65, 0x61, 0x64, 0x56, 0x61, 0x72, 0x69, 0x61, 0x62, 0x6c, 0x65, 0x4f,
  0x70, 0x00, 0x00, 0x00, 0x01, 0x00, 0x00, 0x00, 0x04, 0x00, 0x00, 0x00,
  0x86, 0xfe, 0xff, 0xff, 0x00, 0x00, 0x00, 0x01, 0x10, 0x00, 0x00, 0x00,
  0x10, 0x00, 0x00, 0x00, 0x06, 0x00, 0x00, 0x00, 0x40, 0x00, 0x00, 0x00,
  0x7c, 0xfd, 0xff, 0xff, 0x32, 0x00, 0x00, 0x00, 0x73, 0x65, 0x71, 0x75,
  0x65, 0x6e, 0x74, 0x69, 0x61, 0x6c, 0x5f, 0x33, 0x38, 0x2f, 0x62, 0x61,
  0x74, 0x63, 0x68, 0x5f, 0x6e, 0x6f, 0x72, 0x6d, 0x61, 0x6c, 0x69, 0x7a,
  0x61, 0x74, 0x69, 0x6f, 0x6e, 0x5f, 0x34, 0x38, 0x2f, 0x62, 0x61, 0x74,
  0x63, 0x68, 0x6e, 0x6f, 0x72, 0x6d, 0x2f, 0x6d, 0x75, 0x6c, 0x00, 0x00,
  0x01, 0x00, 0x00, 0x00, 0x04, 0x00, 0x00, 0x00, 0xe2, 0xfe, 0xff, 0xff,
  0x00, 0x00, 0x00, 0x01, 0x10, 0x00, 0x00, 0x00, 0x10, 0x00, 0x00, 0x00,
  0x05, 0x00, 0x00, 0x00, 0x40, 0x00, 0x00, 0x00, 0xd8, 0xfd, 0xff, 0xff,
  0x32, 0x00, 0x00, 0x00, 0x73, 0x65, 0x71, 0x75, 0x65, 0x6e, 0x74, 0x69,
  0x61, 0x6c, 0x5f, 0x33, 0x38, 0x2f, 0x62, 0x61, 0x74, 0x63, 0x68, 0x5f,
  0x6e, 0x6f, 0x72, 0x6d, 0x61, 0x6c, 0x69, 0x7a, 0x61, 0x74, 0x69, 0x6f,
  0x6e, 0x5f, 0x34, 0x38, 0x2f, 0x62, 0x61, 0x74, 0x63, 0x68, 0x6e, 0x6f,
  0x72, 0x6d, 0x2f, 0x73, 0x75, 0x62, 0x00, 0x00, 0x01, 0x00, 0x00, 0x00,
  0x04, 0x00, 0x00, 0x00, 0x3e, 0xff, 0xff, 0xff, 0x00, 0x00, 0x00, 0x01,
  0x10, 0x00, 0x00, 0x00, 0x10, 0x00, 0x00, 0x00, 0x04, 0x00, 0x00, 0x00,
  0x2c, 0x00, 0x00, 0x00, 0x34, 0xfe, 0xff, 0xff, 0x1e, 0x00, 0x00, 0x00,
  0x73, 0x65, 0x71, 0x75, 0x65, 0x6e, 0x74, 0x69, 0x61, 0x6c, 0x5f, 0x33,
  0x38, 0x2f, 0x63, 0x6f, 0x6e, 0x76, 0x31, 0x64, 0x5f, 0x34, 0x36, 0x2f,
  0x43, 0x6f, 0x6e, 0x76, 0x31, 0x44, 0x00, 0x00, 0x04, 0x00, 0x00, 0x00,
  0x04, 0x00, 0x00, 0x00, 0x01, 0x00, 0x00, 0x00, 0x08, 0x00, 0x00, 0x00,
  0x06, 0x00, 0x00, 0x00, 0x00, 0x00, 0x16, 0x00, 0x1c, 0x00, 0x18, 0x00,
  0x17, 0x00, 0x10, 0x00, 0x0c, 0x00, 0x08, 0x00, 0x00, 0x00, 0x00, 0x00,
  0x00, 0x00, 0x07, 0x00, 0x16, 0x00, 0x00, 0x00, 0x00, 0x00, 0x00, 0x01,
  0x14, 0x00, 0x00, 0x00, 0x14, 0x00, 0x00, 0x00, 0x03, 0x00, 0x00, 0x00,
  0x00, 0x00, 0x00, 0x02, 0x34, 0x00, 0x00, 0x00, 0xa4, 0xfe, 0xff, 0xff,
  0x26, 0x00, 0x00, 0x00, 0x73, 0x65, 0x71, 0x75, 0x65, 0x6e, 0x74, 0x69,
  0x61, 0x6c, 0x5f, 0x33, 0x38, 0x2f, 0x63, 0x6f, 0x6e, 0x76, 0x31, 0x64,
  0x5f, 0x34, 0x36, 0x2f, 0x43, 0x6f, 0x6e, 0x76, 0x31, 0x44, 0x2f, 0x53,
  0x71, 0x75, 0x65, 0x65, 0x7a, 0x65, 0x00, 0x00, 0x01, 0x00, 0x00, 0x00,
  0x03, 0x00, 0x00, 0x00, 0x00, 0x00, 0x16, 0x00, 0x18, 0x00, 0x14, 0x00,
  0x00, 0x00, 0x10, 0x00, 0x0c, 0x00, 0x08, 0x00, 0x00, 0x00, 0x00, 0x00,
  0x00, 0x00, 0x07, 0x00, 0x16, 0x00, 0x00, 0x00, 0x00, 0x00, 0x00, 0x01,
  0x10, 0x00, 0x00, 0x00, 0x10, 0x00, 0x00, 0x00, 0x02, 0x00, 0x00, 0x00,
  0x3c, 0x00, 0x00, 0x00, 0x0c, 0xff, 0xff, 0xff, 0x2e, 0x00, 0x00, 0x00,
  0x73, 0x65, 0x71, 0x75, 0x65, 0x6e, 0x74, 0x69, 0x61, 0x6c, 0x5f, 0x33,
  0x38, 0x2f, 0x63, 0x6f, 0x6e, 0x76, 0x31, 0x64, 0x5f, 0x34, 0x36, 0x2f,
  0x42, 0x69, 0x61, 0x73, 0x41, 0x64, 0x64, 0x2f, 0x52, 0x65, 0x61, 0x64,
  0x56, 0x61, 0x72, 0x69, 0x61, 0x62, 0x6c, 0x65, 0x4f, 0x70, 0x00, 0x00,
  0x01, 0x00, 0x00, 0x00, 0x04, 0x00, 0x00, 0x00, 0x00, 0x00, 0x16, 0x00,
  0x1c, 0x00, 0x18, 0x00, 0x00, 0x00, 0x14, 0x00, 0x10, 0x00, 0x0c, 0x00,
  0x00, 0x00, 0x00, 0x00, 0x08, 0x00, 0x07, 0x00, 0x16, 0x00, 0x00, 0x00,
  0x00, 0x00, 0x00, 0x01, 0x14, 0x00, 0x00, 0x00, 0x20, 0x00, 0x00, 0x00,
  0x20, 0x00, 0x00, 0x00, 0x01, 0x00, 0x00, 0x00, 0x38, 0x00, 0x00, 0x00,
  0x03, 0x00, 0x00, 0x00, 0xff, 0xff, 0xff, 0xff, 0x42, 0x00, 0x00, 0x00,
  0x06, 0x00, 0x00, 0x00, 0x90, 0xff, 0xff, 0xff, 0x1a, 0x00, 0x00, 0x00,
  0x73, 0x65, 0x72, 0x76, 0x69, 0x6e, 0x67, 0x5f, 0x64, 0x65, 0x66, 0x61,
  0x75, 0x6c, 0x74, 0x5f, 0x69, 0x6e, 0x70, 0x75, 0x74, 0x5f, 0x33, 0x39,
  0x3a, 0x30, 0x00, 0x00, 0x03, 0x00, 0x00, 0x00, 0x01, 0x00, 0x00, 0x00,
  0x42, 0x00, 0x00, 0x00, 0x06, 0x00, 0x00, 0x00, 0x08, 0x00, 0x00, 0x00,
  0x7c, 0x00, 0x00, 0x00, 0x60, 0x00, 0x00, 0x00, 0x50, 0x00, 0x00, 0x00,
  0x40, 0x00, 0x00, 0x00, 0x30, 0x00, 0x00, 0x00, 0x28, 0x00, 0x00, 0x00,
  0x14, 0x00, 0x00, 0x00, 0x04, 0x00, 0x00, 0x00, 0xb0, 0xff, 0xff, 0xff,
  0x19, 0x00, 0x00, 0x00, 0x00, 0x00, 0x00, 0x19, 0xbc, 0xff, 0xff, 0xff,
  0x09, 0x00, 0x00, 0x00, 0x00, 0x00, 0x00, 0x09, 0x04, 0x00, 0x04, 0x00,
  0x04, 0x00, 0x00, 0x00, 0xd0, 0xff, 0xff, 0xff, 0x12, 0x00, 0x00, 0x00,
  0x00, 0x00, 0x00, 0x12, 0xdc, 0xff, 0xff, 0xff, 0x11, 0x00, 0x00, 0x00,
  0x00, 0x00, 0x00, 0x11, 0xe8, 0xff, 0xff, 0xff, 0x16, 0x00, 0x00, 0x00,
  0x00, 0x00, 0x00, 0x16, 0xf4, 0xff, 0xff, 0xff, 0x03, 0x00, 0x00, 0x00,
  0x00, 0x00, 0x00, 0x03, 0x0c, 0x00, 0x0c, 0x00, 0x0b, 0x00, 0x00, 0x00,
  0x00, 0x00, 0x04, 0x00, 0x0c, 0x00, 0x00, 0x00, 0x46, 0x00, 0x00, 0x00,
  0x00, 0x00, 0x00, 0x46
};
const unsigned int g_model_data_len = 6160;
